module {
  util.global private @__device_0 : !hal.device
  util.initializer {
    %c18_i32 = arith.constant 18 : i32
    %false = arith.constant false
    %c0 = arith.constant 0 : index
    %c1 = arith.constant 1 : index
    %0 = util.null : !hal.device
    %device_count = hal.devices.count : index
    cf.br ^bb1(%c0, %c0, %0 : index, index, !hal.device)
  ^bb1(%1: index, %2: index, %3: !hal.device):  // 2 preds: ^bb0, ^bb4
    %4 = util.cmp.eq %3, %0 : !hal.device
    %5 = arith.cmpi slt, %1, %device_count : index
    %6 = arith.andi %4, %5 : i1
    cf.cond_br %6, ^bb2, ^bb5
  ^bb2:  // pred: ^bb1
    %device_n = hal.devices.get %1 : !hal.device
    %ok, %value = hal.device.query<%device_n : !hal.device> key("hal.device.id" :: "local*") : i1, i1 = false
    cf.cond_br %value, ^bb3, ^bb4(%false : i1)
  ^bb3:  // pred: ^bb2
    %ok_0, %value_1 = hal.device.query<%device_n : !hal.device> key("hal.executable.format" :: "embedded-elf-x86_64") : i1, i1 = false
    cf.br ^bb4(%value_1 : i1)
  ^bb4(%7: i1):  // 2 preds: ^bb2, ^bb3
    %8 = arith.cmpi eq, %2, %c0 : index
    %9 = arith.select %7, %c1, %c0 : index
    %10 = arith.addi %2, %9 : index
    %11 = arith.andi %7, %8 : i1
    %12 = arith.select %11, %device_n, %0 : !hal.device
    %13 = arith.addi %1, %c1 : index
    cf.br ^bb1(%13, %10, %12 : index, index, !hal.device)
  ^bb5:  // pred: ^bb1
    cf.cond_br %4, ^bb6, ^bb7
  ^bb6:  // pred: ^bb5
    util.status.check_ok %c18_i32, "HAL device `__device_0` not found or unavailable: #hal.device.target<\22local\22, [#hal.executable.target<\22llvm-cpu\22, \22embedded-elf-x86_64\22, {cpu = \22tigerlake\22, cpu_features = \22+64bit,+adx,+aes,-amx-avx512,-amx-bf16,-amx-complex,-amx-fp16,-amx-fp8,-amx-int8,-amx-movrs,-amx-tf32,-amx-tile,+avx,-avx10.1,-avx10.2,+avx2,-avx512bf16,+avx512bitalg,+avx512bw,+avx512cd,+avx512dq,+avx512f,-avx512fp16,+avx512ifma,+avx512vbmi,+avx512vbmi2,+avx512vl,+avx512vnni,+avx512vp2intersect,+avx512vpopcntdq,-avxifma,-avxneconvert,-avxvnni,-avxvnniint16,-avxvnniint8,+bmi,+bmi2,-ccmp,-cf,-cldemote,+clflushopt,+clwb,-clzero,+cmov,-cmpccxadd,+crc32,+cx16,+cx8,-egpr,-enqcmd,+f16c,+fma,-fma4,+fsgsbase,+fxsr,+gfni,-hreset,+invpcid,-kl,-lwp,+lzcnt,+mmx,+movbe,+movdir64b,+movdiri,-movrs,-mwaitx,-ndd,-nf,+pclmul,-pconfig,-pku,+popcnt,-ppx,-prefetchi,+prfchw,-ptwrite,-push2pop2,-raoint,+rdpid,-rdpru,+rdrnd,+rdseed,-rtm,+sahf,-serialize,-sgx,+sha,-sha512,+shstk,-sm3,-sm4,+sse,+sse2,+sse3,+sse4.1,+sse4.2,-sse4a,+ssse3,-tbm,-tsxldtrk,-uintr,-usermsr,+vaes,+vpclmulqdq,-waitpkg,-wbnoinvd,-widekl,-xop,+xsave,+xsavec,+xsaveopt,+xsaves,-zu\22, data_layout = \22e-m:e-p270:32:32-p271:32:32-p272:64:64-i64:64-i128:128-f80:128-n8:16:32:64-S128\22, iree.encoding.resolver = #iree_cpu.cpu_encoding_resolver<>, max_stack_allocation_size = 32768 : i64, native_vector_size = 64 : i64, target_triple = \22x86_64-unknown-unknown-eabi-elf\22}>]>"
    cf.br ^bb7
  ^bb7:  // 2 preds: ^bb5, ^bb6
    util.global.store %3, @__device_0 : !hal.device
    util.return
  }
  util.global private @__device_0_query_0_hal_executable_format_embedded_elf_x86_64 : i1
  util.initializer {
    %__device_0 = util.global.load @__device_0 : !hal.device
    %ok, %value = hal.device.query<%__device_0 : !hal.device> key("hal.executable.format" :: "embedded-elf-x86_64") : i1, i1 = false
    util.global.store %value, @__device_0_query_0_hal_executable_format_embedded_elf_x86_64 : i1
    util.return
  }
  util.global private @__device_0_executable_0_abs_dispatch_0 : !hal.executable
  util.initializer {
    %c-1_i64 = arith.constant -1 : i64
    %c-1 = arith.constant -1 : index
    %c0 = arith.constant 0 : index
    %c14_i32 = arith.constant 14 : i32
    %0 = util.null : !hal.executable
    %__device_0_query_0_hal_executable_format_embedded_elf_x86_64 = util.global.load @__device_0_query_0_hal_executable_format_embedded_elf_x86_64 : i1
    %__device_0 = util.global.load @__device_0 : !hal.device
    %1 = arith.select %__device_0_query_0_hal_executable_format_embedded_elf_x86_64, %c0, %c-1 : index
    %2 = arith.cmpi eq, %1, %c0 : index
    cf.cond_br %2, ^bb1, ^bb2
  ^bb1:  // pred: ^bb0
    %executable = hal.executable.create device(%__device_0 : !hal.device) affinity(%c-1_i64) target(@abs_dispatch_0::@embedded_elf_x86_64) : !hal.executable
    cf.br ^bb3(%executable : !hal.executable)
  ^bb2:  // pred: ^bb0
    util.status.check_ok %c14_i32, "HAL device `__device_0` does not support any variant of executable `abs_dispatch_0`; available formats: [embedded-elf-x86_64]"
    cf.br ^bb3(%0 : !hal.executable)
  ^bb3(%3: !hal.executable):  // 2 preds: ^bb1, ^bb2
    util.global.store %3, @__device_0_executable_0_abs_dispatch_0 : !hal.executable
    util.return
  }
  hal.executable private @abs_dispatch_0 {
    hal.executable.binary public @embedded_elf_x86_64 attributes {data = dense<"0x7F454C4602010100000000000000000003003E0001000000000000000000000040000000000000009008000000000000000000004000380007004000150013000600000004000000400000000000000040000000000000004000000000000000880100000000000088010000000000000800000000000000010000000400000000000000000000000000000000000000000000000000000030040000000000003004000000000000001000000000000001000000050000003004000000000000301400000000000030140000000000003100000000000000310000000000000000100000000000000100000006000000700400000000000070240000000000007024000000000000A001000000000000900B00000000000000100000000000000200000006000000500500000000000050250000000000005025000000000000C000000000000000C000000000000000080000000000000052E5746404000000700400000000000070240000000000007024000000000000A001000000000000900B000000000000010000000000000051E574640600000000000000000000000000000000000000000000000000000000000000000000000000000000000000000000000000000000000000000000000000000000000000000000000000000001000000120007005014000000000000110000000000000002000000020000000000000001000000000000000000000000697265655F68616C5F65786563757461626C655F6C6962726172795F717565727900000000000078240000000000000800000000000000600300000000000088240000000000000800000000000000301400000000000090240000000000000800000000000000B003000000000000A0240000000000000800000000000000CB03000000000000B8240000000000000800000000000000E003000000000000C0240000000000000800000000000000E003000000000000D02400000000000008000000000000007024000000000000F02400000000000008000000000000008824000000000000F8240000000000000800000000000000700300000000000010250000000000000800000000000000902400000000000028250000000000000800000000000000982400000000000030250000000000000800000000000000B02400000000000000000000000000006162735F64697370617463685F300000000000000000000000000002010000000100000001000000000000000000000000000000000000000000000000000000000000000000000000000000000000006162735F64697370617463685F305F656C656D656E7477697365006D6970735F73696D706C655F6162732E6D6C6972001400000000000000017A5200017810011B0C0708900100001C0000001C000000301000001C00000000410E108602430D06570C0708000000100000003C00000030100000110000000000000000000000554889E5488B4620488B08488B4008BAFFFFFF7F2311891031C05DC3CCCCCCCC31C083FF06488D0D74100000480F44C1C300000000000000000000000000000006000000000000000000000000000000000000000000000000000000000000000000000000000000010000001400000000000000000000000000000000000000000000000000000000000000000000000000000000000000000000000000000000000000000000000000000000000000000000000000000001000000000000000000000000000000000000000000000000000000000000000000000000000000000000000000000000000000000000000000000000000000000000000000000000000000000000000000000000000000000000000000000000000000000000001E000000000000000800000000000000FBFFFF6F000000000100000000000000070000000000000038020000000000000800000000000000200100000000000009000000000000001800000000000000F9FFFF6F000000000C000000000000000600000000000000C8010000000000000B000000000000001800000000000000050000000000000010020000000000000A0000000000000023000000000000000400000000000000F80100000000000000000000000000000000000000000000011101250E1305030E1017B44219110112060000022E001101120640186E0E030E3A0B3B0B49133F190000032400030E3E0B0B0B000000470000000400000000000801210000002C001F0000000000000030140000000000001C0000000230140000000000001C00000001560000000000000000010143000000031B0000000504006162735F64697370617463685F305F656C656D656E747769736500696E74002D0049524545002D0000000200000000004B000000260000006162735F64697370617463685F305F656C656D656E74776973650000000000160000000200000000004B00000043000000696E74000000000038000000040019000000010101FB0E0D000101010100000001000001002D000000000000090230140000000000000105010A4A060B08580202000101495245450000000000000000000000000000000000000000000000000000000000230000000002090050250000000000000000000000000000010000001200070050140000000000001100000000000000002E64796E73796D002E68617368002E64796E737472002E72656C612E64796E002E726F64617461002E65685F6672616D65002E74657874002E646174612E72656C2E726F002E64796E616D6963002E72656C726F5F70616464696E67002E64656275675F616262726576002E64656275675F696E666F002E64656275675F737472002E64656275675F7075626E616D6573002E64656275675F7075627479706573002E64656275675F6C696E65002E636F6D6D656E74002E73796D746162002E7368737472746162002E7374727461620000697265655F68616C5F65786563757461626C655F6C6962726172795F7175657279005F44594E414D494300000000000000000000000000000000000000000000000000000000000000000000000000000000000000000000000000000000000000000000000000000000000000010000000B0000000200000000000000C801000000000000C801000000000000300000000000000003000000010000000800000000000000180000000000000009000000050000000200000000000000F801000000000000F80100000000000018000000000000000100000000000000040000000000000004000000000000000F000000030000000200000000000000100200000000000010020000000000002300000000000000000000000000000001000000000000000000000000000000170000000400000002000000000000003802000000000000380200000000000020010000000000000100000000000000080000000000000018000000000000002100000001000000020000000000000060030000000000006003000000000000800000000000000000000000000000001000000000000000000000000000000029000000010000000200000000000000E003000000000000E0030000000000005000000000000000000000000000000008000000000000000000000000000000330000000100000006000000000000003014000000000000300400000000000031000000000000000000000000000000100000000000000000000000000000003900000001000000030000000000000070240000000000007004000000000000E0000000000000000000000000000000100000000000000000000000000000004600000006000000030000000000000050250000000000005005000000000000C0000000000000000300000000000000080000000000000010000000000000004F00000008000000030000000000000010260000000000001006000000000000F0090000000000000000000000000000010000000000000000000000000000005E0000000100000000000000000000000000000000000000100600000000000037000000000000000000000000000000010000000000000000000000000000006C000000010000000000000000000000000000000000000047060000000000004B0000000000000000000000000000000100000000000000000000000000000078000000010000003000000000000000000000000000000092060000000000002600000000000000000000000000000001000000000000000100000000000000830000000100000000000000000000000000000000000000B8060000000000003100000000000000000000000000000001000000000000000000000000000000930000000100000000000000000000000000000000000000E9060000000000001A00000000000000000000000000000001000000000000000000000000000000A3000000010000000000000000000000000000000000000003070000000000003C00000000000000000000000000000001000000000000000000000000000000AF00000001000000300000000000000000000000000000003F070000000000000500000000000000000000000000000001000000000000000100000000000000B8000000020000000000000000000000000000000000000048070000000000004800000000000000140000000200000008000000000000001800000000000000C000000003000000000000000000000000000000000000009007000000000000D200000000000000000000000000000001000000000000000000000000000000CA000000030000000000000000000000000000000000000062080000000000002C00000000000000000000000000000001000000000000000000000000000000"> : vector<3536xi8>, format = "embedded-elf-x86_64", mime_type = "application/x-elf"}
  }
  util.func private @__abs_memoize_apply() -> !hal.command_buffer attributes {inlining_policy = #util.inline.never} {
    %c-1_i64 = arith.constant -1 : i64
    %c2 = arith.constant 2 : index
    %c0 = arith.constant 0 : index
    %c1 = arith.constant 1 : index
    %c4 = arith.constant 4 : index
    %__device_0 = util.global.load immutable @__device_0 : !hal.device
    %__device_0_executable_0_abs_dispatch_0 = util.global.load immutable @__device_0_executable_0_abs_dispatch_0 : !hal.executable
    %cmd = hal.command_buffer.create device(%__device_0 : !hal.device) mode("None") categories("Transfer|Dispatch") affinity(%c-1_i64) bindings(%c2) : !hal.command_buffer
    hal.command_buffer.dispatch<%cmd : !hal.command_buffer> target(%__device_0_executable_0_abs_dispatch_0 : !hal.executable)[%c0] workgroups([%c1, %c1, %c1]) bindings([
      (%c0 : index)[%c0, %c4], 
      (%c1 : index)[%c0, %c4]
    ]) flags("None")
    hal.command_buffer.execution_barrier<%cmd : !hal.command_buffer> source("Dispatch|Transfer|CommandRetire") target("CommandIssue|Dispatch|Transfer") flags("None")
    hal.command_buffer.finalize<%cmd : !hal.command_buffer>
    util.return %cmd : !hal.command_buffer
  }
  util.global private @__abs_memoize_result_0_device_0 : !hal.command_buffer
  util.initializer {
    %0 = util.call @__abs_memoize_apply() : () -> !hal.command_buffer
    util.global.store %0, @__abs_memoize_result_0_device_0 : !hal.command_buffer
    util.return
  }
  util.func public @abs(%arg0: !hal.buffer_view) -> !hal.buffer_view attributes {iree.abi.stub, iree.reflection = {iree.abi.declaration = "sync func @abs(%input0: tensor<f32>) -> (%output0: tensor<f32>)"}} {
    %c-1_i32 = arith.constant -1 : i32
    %c0_i64 = arith.constant 0 : i64
    %0 = util.null : !hal.fence
    %c-1_i64 = arith.constant -1 : i64
    %c0 = arith.constant 0 : index
    %c4 = arith.constant 4 : index
    %memory_type = hal.memory_type<"DeviceVisible|DeviceLocal"> : i32
    %buffer_usage = hal.buffer_usage<"TransferSource|TransferTarget|Transfer|DispatchStorageRead|DispatchStorageWrite|DispatchStorage"> : i32
    %__device_0 = util.global.load immutable @__device_0 : !hal.device
    %__abs_memoize_result_0_device_0 = util.global.load immutable @__abs_memoize_result_0_device_0 : !hal.command_buffer
    %element_type_f32 = hal.element_type<f32> : i32
    %dense_row_major = hal.encoding_type<dense_row_major> : i32
    hal.buffer_view.assert<%arg0 : !hal.buffer_view> message("input0") shape([]) type(%element_type_f32) encoding(%dense_row_major)
    %buffer = hal.buffer_view.buffer<%arg0 : !hal.buffer_view> : !hal.buffer
    %allocator = hal.device.allocator<%__device_0 : !hal.device> : !hal.allocator
    hal.buffer.assert<%buffer : !hal.buffer> message("tensor") allocator(%allocator : !hal.allocator) minimum_length(%c4) type(DeviceVisible) usage("TransferSource|TransferTarget|Transfer|DispatchStorageRead|DispatchStorageWrite|DispatchStorage")
    %fence = hal.fence.create device(%__device_0 : !hal.device) flags("None") : !hal.fence
    %transient_buffer = hal.device.queue.alloca<%__device_0 : !hal.device> affinity(%c-1_i64) wait(%0) signal(%fence) pool(%c0_i64) type(%memory_type) usage(%buffer_usage) flags("None") : !hal.buffer{%c4}
    %fence_0 = hal.fence.create device(%__device_0 : !hal.device) flags("None") : !hal.fence
    hal.device.queue.execute.indirect<%__device_0 : !hal.device> affinity(%c-1_i64) wait(%fence) signal(%fence_0) commands(%__abs_memoize_result_0_device_0) bindings([
      (%buffer : !hal.buffer)[%c0, %c4], 
      (%transient_buffer : !hal.buffer)[%c0, %c4]
    ]) flags("None")
    %status = hal.fence.await until([%fence_0]) timeout_millis(%c-1_i32) flags("None") : i32
    util.status.check_ok %status, "failed to wait on timepoint"
    %view = hal.buffer_view.create buffer(%transient_buffer : !hal.buffer)[%c0, %c4] shape([]) type(%element_type_f32) encoding(%dense_row_major) : !hal.buffer_view
    util.return %view : !hal.buffer_view
  }
}
