module {
  util.global private @__device_0 : !hal.device
  util.initializer {
    %c18_i32 = arith.constant 18 : i32
    %false = arith.constant false
    %c0 = arith.constant 0 : index
    %c1 = arith.constant 1 : index
    %0 = util.null : !hal.device
    %device_count = hal.devices.count : index
    cf.br ^bb1(%c0, %c0, %0 : index, index, !hal.device)
  ^bb1(%1: index, %2: index, %3: !hal.device):  // 2 preds: ^bb0, ^bb4
    %4 = util.cmp.eq %3, %0 : !hal.device
    %5 = arith.cmpi slt, %1, %device_count : index
    %6 = arith.andi %4, %5 : i1
    cf.cond_br %6, ^bb2, ^bb5
  ^bb2:  // pred: ^bb1
    %device_n = hal.devices.get %1 : !hal.device
    %ok, %value = hal.device.query<%device_n : !hal.device> key("hal.device.id" :: "local*") : i1, i1 = false
    cf.cond_br %value, ^bb3, ^bb4(%false : i1)
  ^bb3:  // pred: ^bb2
    %ok_0, %value_1 = hal.device.query<%device_n : !hal.device> key("hal.executable.format" :: "embedded-elf-x86_64") : i1, i1 = false
    cf.br ^bb4(%value_1 : i1)
  ^bb4(%7: i1):  // 2 preds: ^bb2, ^bb3
    %8 = arith.cmpi eq, %2, %c0 : index
    %9 = arith.select %7, %c1, %c0 : index
    %10 = arith.addi %2, %9 : index
    %11 = arith.andi %7, %8 : i1
    %12 = arith.select %11, %device_n, %0 : !hal.device
    %13 = arith.addi %1, %c1 : index
    cf.br ^bb1(%13, %10, %12 : index, index, !hal.device)
  ^bb5:  // pred: ^bb1
    cf.cond_br %4, ^bb6, ^bb7
  ^bb6:  // pred: ^bb5
    util.status.check_ok %c18_i32, "HAL device `__device_0` not found or unavailable: #hal.device.target<\22local\22, [#hal.executable.target<\22llvm-cpu\22, \22embedded-elf-x86_64\22, {cpu = \22tigerlake\22, cpu_features = \22+64bit,+adx,+aes,-amx-avx512,-amx-bf16,-amx-complex,-amx-fp16,-amx-fp8,-amx-int8,-amx-movrs,-amx-tf32,-amx-tile,+avx,-avx10.1,-avx10.2,+avx2,-avx512bf16,+avx512bitalg,+avx512bw,+avx512cd,+avx512dq,+avx512f,-avx512fp16,+avx512ifma,+avx512vbmi,+avx512vbmi2,+avx512vl,+avx512vnni,+avx512vp2intersect,+avx512vpopcntdq,-avxifma,-avxneconvert,-avxvnni,-avxvnniint16,-avxvnniint8,+bmi,+bmi2,-ccmp,-cf,-cldemote,+clflushopt,+clwb,-clzero,+cmov,-cmpccxadd,+crc32,+cx16,+cx8,-egpr,-enqcmd,+f16c,+fma,-fma4,+fsgsbase,+fxsr,+gfni,-hreset,+invpcid,-kl,-lwp,+lzcnt,+mmx,+movbe,+movdir64b,+movdiri,-movrs,-mwaitx,-ndd,-nf,+pclmul,-pconfig,-pku,+popcnt,-ppx,-prefetchi,+prfchw,-ptwrite,-push2pop2,-raoint,+rdpid,-rdpru,+rdrnd,+rdseed,-rtm,+sahf,-serialize,-sgx,+sha,-sha512,+shstk,-sm3,-sm4,+sse,+sse2,+sse3,+sse4.1,+sse4.2,-sse4a,+ssse3,-tbm,-tsxldtrk,-uintr,-usermsr,+vaes,+vpclmulqdq,-waitpkg,-wbnoinvd,-widekl,-xop,+xsave,+xsavec,+xsaveopt,+xsaves,-zu\22, data_layout = \22e-m:e-p270:32:32-p271:32:32-p272:64:64-i64:64-i128:128-f80:128-n8:16:32:64-S128\22, iree.encoding.resolver = #iree_cpu.cpu_encoding_resolver<>, max_stack_allocation_size = 32768 : i64, native_vector_size = 64 : i64, target_triple = \22x86_64-unknown-unknown-eabi-elf\22}>]>"
    cf.br ^bb7
  ^bb7:  // 2 preds: ^bb5, ^bb6
    util.global.store %3, @__device_0 : !hal.device
    util.return
  }
  util.global private @__device_0_query_0_hal_executable_format_embedded_elf_x86_64 : i1
  util.initializer {
    %__device_0 = util.global.load @__device_0 : !hal.device
    %ok, %value = hal.device.query<%__device_0 : !hal.device> key("hal.executable.format" :: "embedded-elf-x86_64") : i1, i1 = false
    util.global.store %value, @__device_0_query_0_hal_executable_format_embedded_elf_x86_64 : i1
    util.return
  }
  util.global private @__device_0_executable_0_matmul_dispatch_0 : !hal.executable
  util.initializer {
    %c-1_i64 = arith.constant -1 : i64
    %c-1 = arith.constant -1 : index
    %c0 = arith.constant 0 : index
    %c14_i32 = arith.constant 14 : i32
    %0 = util.null : !hal.executable
    %__device_0_query_0_hal_executable_format_embedded_elf_x86_64 = util.global.load @__device_0_query_0_hal_executable_format_embedded_elf_x86_64 : i1
    %__device_0 = util.global.load @__device_0 : !hal.device
    %1 = arith.select %__device_0_query_0_hal_executable_format_embedded_elf_x86_64, %c0, %c-1 : index
    %2 = arith.cmpi eq, %1, %c0 : index
    cf.cond_br %2, ^bb1, ^bb2
  ^bb1:  // pred: ^bb0
    %executable = hal.executable.create device(%__device_0 : !hal.device) affinity(%c-1_i64) target(@matmul_dispatch_0::@embedded_elf_x86_64) : !hal.executable
    cf.br ^bb3(%executable : !hal.executable)
  ^bb2:  // pred: ^bb0
    util.status.check_ok %c14_i32, "HAL device `__device_0` does not support any variant of executable `matmul_dispatch_0`; available formats: [embedded-elf-x86_64]"
    cf.br ^bb3(%0 : !hal.executable)
  ^bb3(%3: !hal.executable):  // 2 preds: ^bb1, ^bb2
    util.global.store %3, @__device_0_executable_0_matmul_dispatch_0 : !hal.executable
    util.return
  }
  hal.executable private @matmul_dispatch_0 {
    hal.executable.binary public @embedded_elf_x86_64 attributes {data = dense<"0x7F454C4602010100000000000000000003003E000100000000000000000000004000000000000000E80E000000000000000000004000380007004000150013000600000004000000400000000000000040000000000000004000000000000000880100000000000088010000000000000800000000000000010000000400000000000000000000000000000000000000000000000000000048040000000000004804000000000000001000000000000001000000050000005004000000000000501400000000000050140000000000004106000000000000410600000000000000100000000000000100000006000000A00A000000000000A02A000000000000A02A000000000000A001000000000000600500000000000000100000000000000200000006000000800B000000000000802B000000000000802B000000000000C000000000000000C000000000000000080000000000000052E5746404000000A00A000000000000A02A000000000000A02A000000000000A0010000000000006005000000000000010000000000000051E57464060000000000000000000000000000000000000000000000000000000000000000000000000000000000000000000000000000000000000000000000000000000000000000000000000000000100000012000700801A000000000000110000000000000002000000020000000000000001000000000000000000000000697265655F68616C5F65786563757461626C655F6C6962726172795F7175657279000000000000A82A00000000000008000000000000006003000000000000B82A00000000000008000000000000005014000000000000C02A0000000000000800000000000000C003000000000000D02A0000000000000800000000000000EB03000000000000E82A0000000000000800000000000000F803000000000000F02A0000000000000800000000000000F803000000000000002B0000000000000800000000000000A02A000000000000202B0000000000000800000000000000B82A000000000000282B00000000000008000000000000008003000000000000402B0000000000000800000000000000C02A000000000000582B0000000000000800000000000000C82A000000000000602B0000000000000800000000000000E02A00000000000000000000000000006D61746D756C5F64697370617463685F30000000000000000000000000000000000000000000000000000003010000000100000001000000000000000000000000000000000000000000000000000000000000000000000000000000000000006D61746D756C5F64697370617463685F305F6D61746D756C5F6C696B655F36347836347836345F663332006D61746D756C2E6D6C697200001400000000000000017A5200017810011B0C0708900100001C0000001C000000381000002C06000000410E108602430D060324060C070800100000003C000000481600001100000000000000000000000000000000000000554889E5488B7620488B0E8B0248C1E00B488D8C083C07000048034610BA000F00004803560831F60F1F840000000000C5F857C048C7C7F0FFFFFF4989D0C5F057C9C5E857D2C5E057DBC5D857E4C5D057EDC5C857F6C5C057FF660F1F44000062C17C482868C462C17C482870C862C17C482878CC62C17C482860D062C17C482858D462C17C482850D862C17C482848DC62C17C482840E062517C482878E462517C482870E862517C482868EC62517C482860F062517C482858F462517C482850F862517C482848FC62517C48280062F25550B884B904F9FFFF62F25550B88CB904FAFFFF62F25550B894B904FBFFFF62F25550B89CB904FCFFFF62F25550B8A4B904FDFFFF62F25550B86CB98162F25550B874B9C162F25550B87CB90162F24D50B884B908F9FFFF62F24D50B88CB908FAFFFF62F24D50B894B908FBFFFF62F24D50B89CB908FCFFFF62F24D50B8A4B908FDFFFF62F24D50B86CB98262F24D50B874B9C262F24D50B87CB90262F24550B884B90CF9FFFF62F24550B88CB90CFAFFFF62F24550B894B90CFBFFFF62F24550B89CB90CFCFFFF62F24550B8A4B90CFDFFFF62F24550B86CB98362F24550B874B9C362F24550B87CB90362F25D50B884B910F9FFFF62F25D50B88CB910FAFFFF62F25D50B894B910FBFFFF62F25D50B89CB910FCFFFF62F25D50B8A4B910FDFFFF62F25D50B86CB98462F25D50B874B9C462F25D50B87CB90462F26550B884B914F9FFFF62F26550B88CB914FAFFFF62F26550B894B914FBFFFF62F26550B89CB914FCFFFF62F26550B8A4B914FDFFFF62F26550B86CB98562F26550B874B9C562F26550B87CB90562F26D50B884B918F9FFFF62F26D50B88CB918FAFFFF62F26D50B894B918FBFFFF62F26D50B89CB918FCFFFF62F26D50B8A4B918FDFFFF62F26D50B86CB98662F26D50B874B9C662F26D50B87CB90662F27550B884B91CF9FFFF62F27550B88CB91CFAFFFF62F27550B894B91CFBFFFF62F27550B89CB91CFCFFFF62F27550B8A4B91CFDFFFF62F27550B86CB98762F27550B874B9C762F27550B87CB90762F27D50B884B920F9FFFF62F27D50B88CB920FAFFFF62F27D50B894B920FBFFFF62F27D50B89CB920FCFFFF62F27D50B8A4B920FDFFFF62F27D50B86CB98862F27D50B874B9C862F27D50B87CB90862F20558B884B924F9FFFF62F20558B88CB924FAFFFF62F20558B894B924FBFFFF62F20558B89CB924FCFFFF62F20558B8A4B924FDFFFF62F20558B86CB98962F20558B874B9C962F20558B87CB90962F20D58B884B928F9FFFF62F20D58B88CB928FAFFFF62F20D58B894B928FBFFFF62F20D58B89CB928FCFFFF62F20D58B8A4B928FDFFFF62F20D58B86CB98A62F20D58B874B9CA62F20D58B87CB90A62F21558B884B92CF9FFFF62F21558B88CB92CFAFFFF62F21558B894B92CFBFFFF62F21558B89CB92CFCFFFF62F21558B8A4B92CFDFFFF62F21558B86CB98B62F21558B874B9CB62F21558B87CB90B62F21D58B884B930F9FFFF62F21D58B88CB930FAFFFF62F21D58B894B930FBFFFF62F21D58B89CB930FCFFFF62F21D58B8A4B930FDFFFF62F21D58B86CB98C62F21D58B874B9CC62F21D58B87CB90C62F22558B884B934F9FFFF62F22558B88CB934FAFFFF62F22558B894B934FBFFFF62F22558B89CB934FCFFFF62F22558B8A4B934FDFFFF62F22558B86CB98D62F22558B874B9CD62F22558B87CB90D62F22D58B884B938F9FFFF62F22D58B88CB938FAFFFF62F22D58B894B938FBFFFF62F22D58B89CB938FCFFFF62F22D58B8A4B938FDFFFF62F22D58B86CB98E62F22D58B874B9CE62F22D58B87CB90E62F23558B884B93CF9FFFF62F23558B88CB93CFAFFFF62F23558B894B93CFBFFFF62F23558B89CB93CFCFFFF62F23558B8A4B93CFDFFFF62F23558B86CB98F62F23558B874B9CF62F23558B87CB90F62F23D58B884B940F9FFFF62F23D58B88CB940FAFFFF62F23D58B894B940FBFFFF62F23D58B89CB940FCFFFF62F23D58B8A4B940FDFFFF62F23D58B86CB99062F23D58B874B9D062F23D58B87CB9104883C7104981C0001000004883FF300F828CFAFFFF62F17C482904B062F17C48294CB00462F17C482954B00862F17C48295CB00C62F17C482964B01062F17C48296CB01462F17C482974B01862F17C48297CB01C4883C2404883FE30488D76100F820BFAFFFF31C05DC5F877C3CCCCCCCC31C083FF06488D0D74100000480F44C1C300000000000000000000000000000006000000000000000000000000000000000000000000000000000000000000000000000000000000050000000B00000000000000000000000000000000000000000000000000000000000000000000000000000000000000000000000000000000000000000000000000000000000000000000000000000001000000000000000000000000000000000000000000000000000000000000000000000000000000000000000000000000000000000000000000000000000000000000000000000000000000000000000000000000000000000000000000000000000000000000001E000000000000000800000000000000FBFFFF6F000000000100000000000000070000000000000038020000000000000800000000000000200100000000000009000000000000001800000000000000F9FFFF6F000000000C000000000000000600000000000000C8010000000000000B000000000000001800000000000000050000000000000010020000000000000A0000000000000023000000000000000400000000000000F80100000000000000000000000000000000000000000000011101250E1305030E1017B44219110112060000022E001101120640186E0E030E3A0B3B0B49133F190000032400030E3E0B0B0B000000470000000400000000000801310000002C00040000000000000050140000000000002C0600000250140000000000002C060000015606000000060000000101430000000300000000050400696E74002D006D61746D756C5F64697370617463685F305F6D61746D756C5F6C696B655F36347836347836345F6633320049524545003D0000000200000000004B000000260000006D61746D756C5F64697370617463685F305F6D61746D756C5F6C696B655F36347836347836345F6633320000000000160000000200000000004B00000043000000696E74000000000042000000040019000000010101FB0E0D000101010100000001000001002D000000000000090250140000000000000105010A4E0602240D06023817060B02C70B120205000101495245450000000000000000000000000000000000000000000000000000002300000000020900802B00000000000000000000000000000100000012000700801A0000000000001100000000000000002E64796E73796D002E68617368002E64796E737472002E72656C612E64796E002E726F64617461002E65685F6672616D65002E74657874002E646174612E72656C2E726F002E64796E616D6963002E72656C726F5F70616464696E67002E64656275675F616262726576002E64656275675F696E666F002E64656275675F737472002E64656275675F7075626E616D6573002E64656275675F7075627479706573002E64656275675F6C696E65002E636F6D6D656E74002E73796D746162002E7368737472746162002E7374727461620000697265655F68616C5F65786563757461626C655F6C6962726172795F7175657279005F44594E414D494300000000000000000000000000000000000000000000000000000000000000000000000000000000000000000000000000000000000000000000000000000000000000010000000B0000000200000000000000C801000000000000C801000000000000300000000000000003000000010000000800000000000000180000000000000009000000050000000200000000000000F801000000000000F80100000000000018000000000000000100000000000000040000000000000004000000000000000F000000030000000200000000000000100200000000000010020000000000002300000000000000000000000000000001000000000000000000000000000000170000000400000002000000000000003802000000000000380200000000000020010000000000000100000000000000080000000000000018000000000000002100000001000000020000000000000060030000000000006003000000000000980000000000000000000000000000001000000000000000000000000000000029000000010000000200000000000000F803000000000000F80300000000000050000000000000000000000000000000080000000000000000000000000000003300000001000000060000000000000050140000000000005004000000000000410600000000000000000000000000001000000000000000000000000000000039000000010000000300000000000000A02A000000000000A00A000000000000E00000000000000000000000000000001000000000000000000000000000000046000000060000000300000000000000802B000000000000800B000000000000C0000000000000000300000000000000080000000000000010000000000000004F000000080000000300000000000000402C000000000000400C000000000000C0030000000000000000000000000000010000000000000000000000000000005E0000000100000000000000000000000000000000000000400C00000000000037000000000000000000000000000000010000000000000000000000000000006C0000000100000000000000000000000000000000000000770C0000000000004B00000000000000000000000000000001000000000000000000000000000000780000000100000030000000000000000000000000000000C20C0000000000003600000000000000000000000000000001000000000000000100000000000000830000000100000000000000000000000000000000000000F80C0000000000004100000000000000000000000000000001000000000000000000000000000000930000000100000000000000000000000000000000000000390D0000000000001A00000000000000000000000000000001000000000000000000000000000000A30000000100000000000000000000000000000000000000530D0000000000004600000000000000000000000000000001000000000000000000000000000000AF0000000100000030000000000000000000000000000000990D0000000000000500000000000000000000000000000001000000000000000100000000000000B80000000200000000000000000000000000000000000000A00D0000000000004800000000000000140000000200000008000000000000001800000000000000C00000000300000000000000000000000000000000000000E80D000000000000D200000000000000000000000000000001000000000000000000000000000000CA0000000300000000000000000000000000000000000000BA0E0000000000002C00000000000000000000000000000001000000000000000000000000000000"> : vector<5160xi8>, format = "embedded-elf-x86_64", mime_type = "application/x-elf"}
  }
  util.func private @__matmul_memoize_apply() -> !hal.command_buffer attributes {inlining_policy = #util.inline.never} {
    %c-1_i64 = arith.constant -1 : i64
    %c8 = arith.constant 8 : index
    %c3 = arith.constant 3 : index
    %c0 = arith.constant 0 : index
    %c1 = arith.constant 1 : index
    %c2 = arith.constant 2 : index
    %c16384 = arith.constant 16384 : index
    %__device_0 = util.global.load immutable @__device_0 : !hal.device
    %__device_0_executable_0_matmul_dispatch_0 = util.global.load immutable @__device_0_executable_0_matmul_dispatch_0 : !hal.executable
    %cmd = hal.command_buffer.create device(%__device_0 : !hal.device) mode("None") categories("Transfer|Dispatch") affinity(%c-1_i64) bindings(%c3) : !hal.command_buffer
    hal.command_buffer.dispatch<%cmd : !hal.command_buffer> target(%__device_0_executable_0_matmul_dispatch_0 : !hal.executable)[%c0] workgroups([%c8, %c1, %c1]) bindings([
      (%c0 : index)[%c0, %c16384], 
      (%c1 : index)[%c0, %c16384], 
      (%c2 : index)[%c0, %c16384]
    ]) flags("None")
    hal.command_buffer.execution_barrier<%cmd : !hal.command_buffer> source("Dispatch|Transfer|CommandRetire") target("CommandIssue|Dispatch|Transfer") flags("None")
    hal.command_buffer.finalize<%cmd : !hal.command_buffer>
    util.return %cmd : !hal.command_buffer
  }
  util.global private @__matmul_memoize_result_0_device_0 : !hal.command_buffer
  util.initializer {
    %0 = util.call @__matmul_memoize_apply() : () -> !hal.command_buffer
    util.global.store %0, @__matmul_memoize_result_0_device_0 : !hal.command_buffer
    util.return
  }
  util.func public @matmul(%arg0: !hal.buffer_view, %arg1: !hal.buffer_view) -> !hal.buffer_view attributes {iree.abi.stub, iree.reflection = {iree.abi.declaration = "sync func @matmul(%input0: tensor<64x64xf32>, %input1: tensor<64x64xf32>) -> (%output0: tensor<64x64xf32>)"}} {
    %c-1_i32 = arith.constant -1 : i32
    %c0_i64 = arith.constant 0 : i64
    %0 = util.null : !hal.fence
    %c-1_i64 = arith.constant -1 : i64
    %c0 = arith.constant 0 : index
    %c16384 = arith.constant 16384 : index
    %c64 = arith.constant 64 : index
    %memory_type = hal.memory_type<"DeviceVisible|DeviceLocal"> : i32
    %buffer_usage = hal.buffer_usage<"TransferSource|TransferTarget|Transfer|DispatchStorageRead|DispatchStorageWrite|DispatchStorage"> : i32
    %__device_0 = util.global.load immutable @__device_0 : !hal.device
    %__matmul_memoize_result_0_device_0 = util.global.load immutable @__matmul_memoize_result_0_device_0 : !hal.command_buffer
    %element_type_f32 = hal.element_type<f32> : i32
    %dense_row_major = hal.encoding_type<dense_row_major> : i32
    hal.buffer_view.assert<%arg0 : !hal.buffer_view> message("input0") shape([%c64, %c64]) type(%element_type_f32) encoding(%dense_row_major)
    %buffer = hal.buffer_view.buffer<%arg0 : !hal.buffer_view> : !hal.buffer
    %allocator = hal.device.allocator<%__device_0 : !hal.device> : !hal.allocator
    hal.buffer.assert<%buffer : !hal.buffer> message("tensor") allocator(%allocator : !hal.allocator) minimum_length(%c16384) type(DeviceVisible) usage("TransferSource|TransferTarget|Transfer|DispatchStorageRead|DispatchStorageWrite|DispatchStorage")
    hal.buffer_view.assert<%arg1 : !hal.buffer_view> message("input1") shape([%c64, %c64]) type(%element_type_f32) encoding(%dense_row_major)
    %buffer_0 = hal.buffer_view.buffer<%arg1 : !hal.buffer_view> : !hal.buffer
    hal.buffer.assert<%buffer_0 : !hal.buffer> message("tensor") allocator(%allocator : !hal.allocator) minimum_length(%c16384) type(DeviceVisible) usage("TransferSource|TransferTarget|Transfer|DispatchStorageRead|DispatchStorageWrite|DispatchStorage")
    %fence = hal.fence.create device(%__device_0 : !hal.device) flags("None") : !hal.fence
    %transient_buffer = hal.device.queue.alloca<%__device_0 : !hal.device> affinity(%c-1_i64) wait(%0) signal(%fence) pool(%c0_i64) type(%memory_type) usage(%buffer_usage) flags("None") : !hal.buffer{%c16384}
    %fence_1 = hal.fence.create device(%__device_0 : !hal.device) flags("None") : !hal.fence
    hal.device.queue.execute.indirect<%__device_0 : !hal.device> affinity(%c-1_i64) wait(%fence) signal(%fence_1) commands(%__matmul_memoize_result_0_device_0) bindings([
      (%buffer : !hal.buffer)[%c0, %c16384], 
      (%buffer_0 : !hal.buffer)[%c0, %c16384], 
      (%transient_buffer : !hal.buffer)[%c0, %c16384]
    ]) flags("None")
    %status = hal.fence.await until([%fence_1]) timeout_millis(%c-1_i32) flags("None") : i32
    util.status.check_ok %status, "failed to wait on timepoint"
    %view = hal.buffer_view.create buffer(%transient_buffer : !hal.buffer)[%c0, %c16384] shape([%c64, %c64]) type(%element_type_f32) encoding(%dense_row_major) : !hal.buffer_view
    util.return %view : !hal.buffer_view
  }
}
